//Numpy array shape [20, 16]
//Min -5.681437015533
//Max 4.995138645172
//Number of zeros 160

#ifndef W10_H_
#define W10_H_

#ifndef __SYNTHESIS__
dense_2_weight_t w10[320];
#else
dense_2_weight_t w10[320] = {0.0121867433190, 0.0906986445189, 0.1034603193402, -0.0378084741533, -0.1564799994230, -0.0469248406589, -0.2888423204422, -0.0148347076029, 0.0000000000000, 0.0000000000000, 0.0000000000000, 0.0000000000000, 0.0000000000000, 0.0000000000000, 0.0000000000000, 0.0000000000000, -0.2995268404484, 0.1911420077085, -0.0142677994445, 0.1480081379414, -0.1057378500700, -0.0458033271134, -0.1013979911804, 0.0992705747485, 0.0000000000000, 0.0000000000000, 0.0000000000000, 0.0000000000000, 0.0000000000000, 0.0000000000000, 0.0000000000000, 0.0000000000000, 0.0032910604496, 0.1080836206675, 0.0374757051468, 0.3508568704128, -0.0110474955291, -0.2809911966324, 0.0103470459580, 0.2073489725590, 0.0000000000000, 0.0000000000000, 0.0000000000000, 0.0000000000000, 0.0000000000000, 0.0000000000000, 0.0000000000000, 0.0000000000000, 0.1177745014429, 0.3236062228680, -0.0288394074887, 0.2816612720490, 0.1627721637487, -0.0019467771053, 0.2545947134495, -0.0125371664762, 0.0000000000000, 0.0000000000000, 0.0000000000000, 0.0000000000000, 0.0000000000000, 0.0000000000000, 0.0000000000000, 0.0000000000000, 0.1224870532751, 0.0427498221397, 0.1064244210720, 0.2140759229660, -0.0345297493041, -0.3282276391983, -0.2484119087458, 0.1104691028595, 0.0000000000000, 0.0000000000000, 0.0000000000000, 0.0000000000000, 0.0000000000000, 0.0000000000000, 0.0000000000000, 0.0000000000000, 0.2714061141014, -0.0192780606449, -0.0163925234228, -0.0717037171125, -0.0693610608578, -0.1461073160172, 0.0346940122545, -0.1630388200283, 0.0000000000000, 0.0000000000000, 0.0000000000000, 0.0000000000000, 0.0000000000000, 0.0000000000000, 0.0000000000000, 0.0000000000000, -0.2528277635574, -0.0806061998010, -0.0864830836654, -0.2055519223213, 0.1610256284475, -0.1392135918140, 0.1463279873133, -0.0293908044696, 0.0000000000000, 0.0000000000000, 0.0000000000000, 0.0000000000000, 0.0000000000000, 0.0000000000000, 0.0000000000000, 0.0000000000000, 0.1899935305119, -0.0798574537039, -0.0169984493405, 0.2509742379189, -0.0265672001988, -0.2137093394995, -0.2287984937429, 0.1314658969641, 0.0000000000000, 0.0000000000000, 0.0000000000000, 0.0000000000000, 0.0000000000000, 0.0000000000000, 0.0000000000000, 0.0000000000000, -0.0380240604281, -0.4206005334854, 0.0398578681052, -0.1074770689011, -0.1825712919235, 0.0269137620926, -0.0249873120338, 0.0546704567969, 0.0000000000000, 0.0000000000000, 0.0000000000000, 0.0000000000000, 0.0000000000000, 0.0000000000000, 0.0000000000000, 0.0000000000000, 0.0724850967526, 0.1113686710596, -0.1905110776424, -0.0476218424737, -0.1140248030424, 0.1282065659761, -0.2930741906166, -0.0371343642473, 0.0000000000000, 0.0000000000000, 0.0000000000000, 0.0000000000000, 0.0000000000000, 0.0000000000000, 0.0000000000000, 0.0000000000000, 0.0000000000000, 0.0000000000000, 0.0000000000000, 0.0000000000000, 0.0000000000000, 0.0000000000000, 0.0000000000000, 0.0000000000000, 0.2358939349651, -1.3770487308502, -0.6702923774719, -0.9754592776299, -0.5920095443726, -1.7012852430344, -1.0104225873947, -0.2575343847275, 0.0000000000000, 0.0000000000000, 0.0000000000000, 0.0000000000000, 0.0000000000000, 0.0000000000000, 0.0000000000000, 0.0000000000000, -0.9029626846313, -0.3581218421459, 0.7255620956421, 1.6494580507278, -1.6296538114548, 1.4384449720383, -1.2639565467834, -0.2844929099083, 0.0000000000000, 0.0000000000000, 0.0000000000000, 0.0000000000000, 0.0000000000000, 0.0000000000000, 0.0000000000000, 0.0000000000000, 0.0877016633749, 1.2458417415619, -1.2239425182343, 0.1530487984419, -1.1095256805420, 0.6078931093216, -1.1637916564941, 0.1528194993734, 0.0000000000000, 0.0000000000000, 0.0000000000000, 0.0000000000000, 0.0000000000000, 0.0000000000000, 0.0000000000000, 0.0000000000000, 0.1184337288141, 0.0321886688471, -0.1408877670765, -0.7530627250671, 0.5168910622597, 2.1412055492401, 1.1995636224747, 0.9184513092041, 0.0000000000000, 0.0000000000000, 0.0000000000000, 0.0000000000000, 0.0000000000000, 0.0000000000000, 0.0000000000000, 0.0000000000000, 0.3514119684696, -0.1832693815231, 0.8779502511024, 1.5031563043594, 0.5025675892830, -1.1340072154999, 0.5316163897514, -0.2343689054251, 0.0000000000000, 0.0000000000000, 0.0000000000000, 0.0000000000000, 0.0000000000000, 0.0000000000000, 0.0000000000000, 0.0000000000000, -1.4742285013199, 0.4334401488304, 1.0956242084503, 1.0207910537720, -1.1121566295624, 1.3239088058472, 0.7573444843292, 0.6640369892120, 0.0000000000000, 0.0000000000000, 0.0000000000000, 0.0000000000000, 0.0000000000000, 0.0000000000000, 0.0000000000000, 0.0000000000000, -0.8436645269394, 1.2463520765305, -1.0533030033112, -0.1546755582094, -0.5681875348091, -0.9409090876579, -0.0821775645018, 1.1702531576157, 0.0000000000000, 0.0000000000000, 0.0000000000000, 0.0000000000000, 0.0000000000000, 0.0000000000000, 0.0000000000000, 0.0000000000000, 2.5038011074066, 0.9678866863251, 1.9467027187347, 0.0025173283648, 0.1043402403593, -0.5276466608047, -2.1020569801331, -0.1822472959757, 0.0000000000000, 0.0000000000000, 0.0000000000000, 0.0000000000000, 0.0000000000000, 0.0000000000000, 0.0000000000000, 0.0000000000000, 1.1275509595871, 1.7191807031631, -0.6968849301338, -0.2304070889950, 0.9095748066902, 1.6297466754913, -0.1483383476734, 0.8829469084740, 0.0000000000000, 0.0000000000000, 0.0000000000000, 0.0000000000000, 0.0000000000000, 0.0000000000000, 0.0000000000000, 0.0000000000000, 2.7336773872375, -1.1440773010254, -0.7849037051201, -0.7513208389282, 0.7786160707474, 0.0935576483607, -1.3710888624191, 1.1489046812057};
#endif

#endif
