//Numpy array shape [34, 24]
//Min -4.920410156250
//Max 4.994628906250
//Number of zeros 10

#ifndef W2_H_
#define W2_H_

#ifndef __SYNTHESIS__
dense_weight_t w2[816];
#else
dense_weight_t w2[816] = {-0.001953125000, -0.002929687500, 0.014648437500, 0.003417968750, -0.000976562500, -0.005859375000, 0.008300781250, 0.001464843750, 0.021972656250, 0.015136718750, -0.006835937500, -0.004394531250, 0.001953125000, -0.002929687500, -0.004882812500, 0.007324218750, 0.003906250000, -0.004394531250, -0.005859375000, -0.008789062500, 0.000488281250, -0.001464843750, -0.007812500000, -0.007324218750, 0.000488281250, 0.000976562500, 0.002929687500, -0.000488281250, -0.000976562500, -0.004394531250, 0.000000000000, -0.000976562500, 0.005371093750, 0.002929687500, -0.000488281250, -0.005371093750, 0.000976562500, 0.003906250000, 0.011718750000, 0.003417968750, 0.003417968750, 0.000976562500, -0.000976562500, -0.001464843750, 0.000488281250, 0.008789062500, -0.006835937500, -0.015625000000, -0.005859375000, 0.001953125000, -0.001464843750, 0.004882812500, -0.004394531250, -0.004882812500, 0.000000000000, -0.002441406250, -0.000488281250, -0.001953125000, -0.002929687500, -0.006835937500, 0.000000000000, 0.000488281250, -0.002441406250, 0.000976562500, 0.001464843750, -0.006835937500, 0.001953125000, -0.002441406250, 0.003417968750, 0.000976562500, 0.013183593750, 0.000000000000, -0.036132812500, 0.009277343750, -0.012207031250, 0.001464843750, -0.033203125000, 0.039550781250, -0.015136718750, 0.008300781250, -0.012695312500, -0.010742187500, 0.040527343750, -0.019042968750, -0.002929687500, 0.018554687500, -0.081542968750, -0.019042968750, -0.010742187500, 0.013183593750, 0.001953125000, 0.015136718750, -0.013183593750, 0.003417968750, -0.029785156250, 0.029296875000, 0.022460937500, 0.000976562500, 0.003417968750, -0.025390625000, 0.017578125000, -0.002441406250, -0.005859375000, 0.012695312500, 0.003417968750, 0.003906250000, -0.010253906250, -0.009277343750, -0.002929687500, 0.001953125000, 0.017089843750, 0.000976562500, 0.000976562500, 0.009765625000, -0.001953125000, 0.003417968750, -0.024902343750, 0.000000000000, 0.010253906250, -0.000976562500, 0.049804687500, -0.015136718750, 0.000488281250, -0.017089843750, 0.045410156250, 0.011230468750, 0.005859375000, -0.009765625000, -0.002441406250, -0.002441406250, 0.005371093750, -0.030273437500, -0.002441406250, 0.004394531250, 0.010742187500, 0.002441406250, -0.010742187500, 0.003906250000, 0.000000000000, 0.010253906250, -0.060546875000, 0.000000000000, 0.011230468750, 0.005859375000, -0.545410156250, 0.067871093750, 0.170410156250, -2.862304687500, -0.266601562500, -0.078613281250, 2.435546875000, -0.105468750000, -0.142089843750, -1.673828125000, -0.129394531250, 0.116210937500, 0.369628906250, -1.204589843750, -0.323730468750, -1.653808593750, -1.907226562500, 1.121582031250, 0.919921875000, -3.194824218750, 0.487792968750, -0.384765625000, -0.007324218750, -1.084960937500, 0.207519531250, -0.140136718750, 0.507812500000, -0.622070312500, 0.506347656250, -0.075683593750, 1.162597656250, -0.745117187500, 0.094238281250, -1.127929687500, -1.059570312500, -0.346191406250, 0.402343750000, -0.099121093750, 0.863769531250, 1.705078125000, -0.056152343750, -1.904296875000, 0.604980468750, -1.023437500000, -0.194335937500, 4.994628906250, -0.321289062500, 0.400390625000, -0.580078125000, 1.504882812500, 0.564941406250, -3.487792968750, 0.337890625000, 0.193359375000, 0.396484375000, -0.334472656250, 0.199218750000, -0.596679687500, 0.214843750000, -0.613769531250, 0.272949218750, -0.607421875000, -0.210449218750, 0.233886718750, -1.055175781250, -0.183105468750, 0.363769531250, -0.005859375000, 0.437500000000, -0.202636718750, 0.114257812500, -0.460449218750, -0.015136718750, 2.955078125000, 1.355468750000, -0.010742187500, 0.570800781250, 2.515136718750, -0.372558593750, -3.132324218750, 0.499023437500, -0.226562500000, -0.935546875000, -0.280761718750, 0.037597656250, -2.979003906250, -1.010253906250, 1.968261718750, -0.030761718750, 1.816894531250, -1.902343750000, 4.213867187500, 0.255859375000, 0.228027343750, -0.624023437500, 2.465332031250, -0.583007812500, 1.484375000000, 0.874511718750, 0.826660156250, 1.825195312500, -2.407714843750, 0.450683593750, -3.834960937500, 0.165039062500, 0.111816406250, 1.006835937500, -0.279785156250, -0.059570312500, -0.111816406250, -0.062500000000, 0.584472656250, -2.849609375000, 1.212890625000, -4.920410156250, -3.496093750000, -0.525390625000, -0.314453125000, 0.546875000000, -0.469726562500, -2.467285156250, -1.084960937500, 0.714355468750, 0.770019531250, 1.472656250000, 1.697265625000, 0.564453125000, -0.150390625000, 0.308593750000, 0.770996093750, 3.344238281250, 0.234375000000, -0.103515625000, 0.843750000000, 0.952636718750, 0.463378906250, -2.786132812500, 0.501953125000, -3.232421875000, 3.459960937500, 0.003417968750, -0.038085937500, 0.145996093750, 0.067382812500, -0.005371093750, 0.036621093750, -0.020019531250, 0.012207031250, 0.018554687500, -0.061523437500, 0.043457031250, -0.028808593750, 0.015136718750, -0.018066406250, -0.023925781250, 0.018066406250, -0.037109375000, -0.044433593750, -0.028320312500, 0.032226562500, 0.025878906250, -0.079101562500, -0.014648437500, -0.118164062500, -0.029785156250, -0.020996093750, 0.009277343750, -0.066406250000, 0.063964843750, -0.023925781250, 0.012207031250, -0.057617187500, 0.009765625000, 0.035644531250, -0.004394531250, -0.002929687500, 0.021972656250, 0.015136718750, -0.015625000000, 0.011718750000, -0.002441406250, 0.043945312500, 0.016113281250, -0.012207031250, -0.032226562500, -0.018554687500, -0.030273437500, -0.009765625000, -0.079101562500, 0.017578125000, -0.010253906250, 0.053710937500, -0.049316406250, 0.012207031250, 0.019042968750, 0.036621093750, -0.006835937500, 0.017089843750, -0.016601562500, 0.014648437500, -0.046386718750, -0.000488281250, 0.028320312500, 0.013671875000, -0.004394531250, 0.015625000000, 0.000976562500, -0.000488281250, -0.017089843750, 0.086425781250, -0.012695312500, 0.023437500000, 0.043457031250, -0.007812500000, -0.024414062500, 0.000000000000, 0.060546875000, 0.093261718750, 0.087890625000, 0.073730468750, 0.075195312500, 0.039062500000, 0.013671875000, 0.000488281250, 0.266113281250, 0.080078125000, 0.163574218750, 0.095703125000, 0.019042968750, -0.020019531250, 0.105957031250, -0.058593750000, 0.036621093750, 0.002929687500, 0.024414062500, 0.057128906250, 0.030273437500, 0.000976562500, -0.016113281250, -0.032714843750, 0.012695312500, -0.005859375000, -0.036132812500, -0.104980468750, -0.024414062500, -0.121093750000, -0.013183593750, 0.062500000000, -0.022460937500, 0.031250000000, -0.143066406250, 0.031738281250, 0.011230468750, -0.012695312500, 0.007324218750, 0.046386718750, 0.000488281250, -0.069824218750, -0.011718750000, -0.102050781250, -0.008789062500, 0.018066406250, 0.025390625000, -0.003906250000, 0.152832031250, -0.099609375000, 0.062988281250, 0.043457031250, 0.155761718750, 0.073242187500, 0.043945312500, -0.053710937500, -0.058105468750, -0.009277343750, 0.009765625000, 0.129394531250, 0.040527343750, 0.014160156250, 0.038085937500, -0.031738281250, -0.104492187500, 0.065917968750, -0.019042968750, 0.036621093750, -0.044433593750, -0.036132812500, -0.054199218750, -0.057617187500, 0.054199218750, 0.029785156250, -0.003906250000, 0.039550781250, 0.012695312500, 0.000000000000, 0.026855468750, -0.017089843750, -0.023925781250, 0.023437500000, 0.094726562500, 0.190429687500, 0.145996093750, -0.316406250000, 0.072265625000, -0.215332031250, -0.046386718750, 0.053222656250, 0.285644531250, 0.308593750000, -0.088378906250, -0.294921875000, 0.074707031250, -0.350585937500, 0.104980468750, -0.080566406250, -0.064941406250, -0.211425781250, -0.041503906250, 0.083984375000, -0.145507812500, 0.131835937500, -0.213378906250, 0.082519531250, 0.013183593750, 0.033203125000, -0.147949218750, -0.245605468750, -0.071289062500, -0.062011718750, -0.094238281250, 0.146972656250, 0.115722656250, 0.083496093750, -0.092285156250, -0.315429687500, 0.200195312500, -0.236816406250, -0.069335937500, 0.164062500000, 0.030761718750, 0.234863281250, 0.145996093750, -0.191894531250, -0.024902343750, -0.002441406250, -0.131835937500, -0.100585937500, -0.033203125000, -0.094238281250, 0.200195312500, 0.073730468750, 0.034179687500, -0.119628906250, 0.008789062500, -0.036132812500, -0.029296875000, -0.196777343750, 0.242187500000, 0.076660156250, -0.117675781250, 0.062988281250, 0.169921875000, 0.046386718750, 0.092285156250, -0.194335937500, -0.004882812500, 0.121093750000, -0.070312500000, 0.150390625000, 0.190917968750, 0.239257812500, 0.143554687500, 0.262695312500, -0.095703125000, -0.105468750000, 0.371582031250, -0.178710937500, -0.038574218750, 0.066894531250, -0.022460937500, 0.230468750000, -0.212890625000, -0.191894531250, -0.077148437500, -0.169921875000, 0.033691406250, 0.112792968750, 0.030761718750, -0.218261718750, -0.030273437500, -0.048339843750, -0.117675781250, 0.155273437500, -0.045410156250, 0.101562500000, -0.026855468750, 0.073730468750, 0.183593750000, -0.058593750000, -0.285156250000, 0.140136718750, -0.001953125000, -0.147460937500, 0.046875000000, -0.164550781250, 0.074707031250, 0.100097656250, 0.062988281250, 0.085937500000, 0.293945312500, 0.104492187500, 0.002929687500, -0.047851562500, 0.154785156250, 0.093750000000, 0.177734375000, 0.223144531250, -0.260253906250, 0.144531250000, -0.226562500000, 0.677246093750, 0.208007812500, -0.144531250000, 0.084960937500, -0.145507812500, -0.164550781250, 0.090332031250, -0.018066406250, -0.109375000000, -0.108886718750, -0.205078125000, -0.091796875000, -0.160644531250, 0.013671875000, 0.076171875000, -0.013183593750, -0.044921875000, 0.055664062500, -0.041015625000, -0.012695312500, 0.012695312500, 0.083007812500, -0.033691406250, -0.012695312500, 0.036621093750, -0.032714843750, -0.014160156250, -0.023925781250, -0.070312500000, -0.028808593750, 0.055175781250, 0.054687500000, 0.102539062500, 0.026367187500, -0.045898437500, -0.003417968750, -0.028808593750, -0.030761718750, 0.145507812500, -0.033203125000, -0.086425781250, 0.024414062500, -0.000488281250, 0.033691406250, 0.125000000000, 0.033203125000, -0.020507812500, 0.028320312500, 0.007324218750, -0.018554687500, 0.083984375000, 0.120117187500, -0.056640625000, -0.036621093750, 0.063476562500, -0.015625000000, 0.028808593750, 0.031738281250, 0.033691406250, -0.043945312500, 0.096191406250, 0.041503906250, -0.333496093750, 0.088867187500, 0.202636718750, 0.008789062500, 0.088378906250, -0.120117187500, -0.091796875000, 0.015136718750, 0.020507812500, 0.049804687500, 0.011230468750, -0.007324218750, -0.007812500000, -0.018066406250, -0.050292968750, 0.021972656250, 0.017578125000, -0.008300781250, 0.011718750000, 0.042480468750, -0.011718750000, -0.010742187500, -0.043945312500, -0.003417968750, -0.489746093750, 0.042968750000, -0.009765625000, -0.193847656250, 0.107910156250, -0.147460937500, -0.081542968750, 0.089355468750, 0.027832031250, -0.323730468750, 0.111328125000, 0.104492187500, -0.136230468750, -0.351074218750, 0.036132812500, 0.133300781250, -0.152343750000, 0.094726562500, -0.145996093750, 0.347167968750, -0.014648437500, 0.122070312500, 0.010253906250, 0.189941406250, 0.108886718750, -0.033691406250, -0.477050781250, 0.196289062500, 0.223144531250, -0.416503906250, 0.285644531250, 0.046386718750, -0.036132812500, 0.140625000000, 0.435058593750, -0.027832031250, -0.046386718750, -0.068847656250, -0.666992187500, -0.216308593750, 0.429687500000, 0.353515625000, 0.649902343750, 0.114257812500, -0.275878906250, 0.019042968750, -0.041015625000, 0.295898437500, 0.132812500000, -0.009277343750, 0.764160156250, 0.507324218750, -0.715332031250, 0.813476562500, -0.534179687500, -0.333496093750, -0.000488281250, -0.306152343750, 0.074707031250, 0.421386718750, -0.559570312500, 0.172363281250, 0.276855468750, 0.410644531250, -0.745117187500, 0.091308593750, -0.200683593750, 0.109863281250, -0.051269531250, 0.314941406250, -0.599121093750, -0.890625000000, 0.029296875000, 0.011718750000, -0.479980468750, -1.025878906250, 0.331054687500, -0.323730468750, 0.184082031250, 0.483398437500, 0.133300781250, 0.323730468750, 0.039550781250, -0.132324218750, 0.398437500000, 0.279785156250, -0.412597656250, -0.212402343750, 0.424316406250, -0.092773437500, 0.243164062500, -0.078125000000, 0.104003906250, -0.761230468750, 0.071289062500, 0.757812500000, 0.083496093750, -0.128906250000, 0.302734375000, 0.703613281250, -0.042480468750, 0.123046875000, -0.132324218750, -0.279785156250, -0.205566406250, -0.124023437500, -0.064453125000, -0.013183593750, -0.084472656250, -0.230468750000, 0.115234375000, 0.189941406250, -0.249023437500, 0.083984375000, 0.127929687500, 0.185058593750, 0.065917968750, 0.602539062500, 0.026367187500, -0.855468750000, -0.381347656250, -0.194335937500, 1.192382812500, -0.469238281250, -0.770019531250, 0.856445312500, -1.437011718750, 0.971191406250, -0.583007812500, -0.192871093750, -1.476074218750, -0.367187500000, 0.536621093750, -0.304199218750, 2.076171875000, 0.273437500000, -1.033203125000, -0.754882812500, -0.507812500000, -0.249023437500, 0.746582031250, -0.316894531250, 1.867675781250, -0.006835937500, 0.007812500000, -0.015625000000, 0.003906250000, -0.001953125000, -0.006347656250, 0.000000000000, 0.001464843750, -0.107421875000, -0.006835937500, 0.002441406250, 0.009765625000, -0.077636718750, 0.035644531250, 0.013671875000, 0.036132812500, -0.002441406250, -0.004394531250, -0.038085937500, -0.049804687500, 0.001953125000, 0.027343750000, 0.003417968750, 0.041015625000};
#endif

#endif
