//Numpy array shape [24, 20]
//Min -4.303710937500
//Max 3.307617187500
//Number of zeros 240

#ifndef W5_H_
#define W5_H_

#ifndef __SYNTHESIS__
dense_1_weight_t w5[480];
#else
dense_1_weight_t w5[480] = {-2.115722656250, -1.062500000000, 0.125488281250, 1.589843750000, 0.047363281250, -0.288574218750, -1.240234375000, -0.513671875000, -1.619140625000, 1.089355468750, 0.000000000000, 0.000000000000, 0.000000000000, 0.000000000000, 0.000000000000, 0.000000000000, 0.000000000000, 0.000000000000, 0.000000000000, 0.000000000000, 1.975097656250, -1.087890625000, -0.901367187500, -1.291015625000, 0.037597656250, 0.203613281250, 1.540527343750, -0.958007812500, -0.437011718750, -2.127929687500, 0.000000000000, 0.000000000000, 0.000000000000, 0.000000000000, 0.000000000000, 0.000000000000, 0.000000000000, 0.000000000000, 0.000000000000, 0.000000000000, -2.238769531250, -0.978515625000, -0.167968750000, 1.293457031250, 0.473144531250, 0.416015625000, -1.571777343750, -0.781250000000, -1.347656250000, 0.912597656250, 0.000000000000, 0.000000000000, 0.000000000000, 0.000000000000, 0.000000000000, 0.000000000000, 0.000000000000, 0.000000000000, 0.000000000000, 0.000000000000, 3.307617187500, 0.165527343750, -0.475097656250, -1.406250000000, -0.190917968750, 0.616210937500, 0.572753906250, -0.665527343750, 2.408203125000, -0.857910156250, 0.000000000000, 0.000000000000, 0.000000000000, 0.000000000000, 0.000000000000, 0.000000000000, 0.000000000000, 0.000000000000, 0.000000000000, 0.000000000000, 2.232910156250, 1.201660156250, -1.086425781250, -1.778808593750, -0.201660156250, 0.191406250000, 1.368652343750, 0.526855468750, 1.430664062500, -1.293457031250, 0.000000000000, 0.000000000000, 0.000000000000, 0.000000000000, 0.000000000000, 0.000000000000, 0.000000000000, 0.000000000000, 0.000000000000, 0.000000000000, 2.251953125000, 0.093750000000, -0.580566406250, -1.831542968750, -0.183105468750, 0.028320312500, 1.437500000000, -0.152343750000, 0.178710937500, -0.120117187500, 0.000000000000, 0.000000000000, 0.000000000000, 0.000000000000, 0.000000000000, 0.000000000000, 0.000000000000, 0.000000000000, 0.000000000000, 0.000000000000, -3.770507812500, -1.214355468750, -0.512207031250, 2.478027343750, 1.350585937500, -0.538085937500, -2.287109375000, 0.441894531250, -1.922851562500, -0.447265625000, 0.000000000000, 0.000000000000, 0.000000000000, 0.000000000000, 0.000000000000, 0.000000000000, 0.000000000000, 0.000000000000, 0.000000000000, 0.000000000000, -4.303710937500, -1.094238281250, -0.022460937500, 2.106933593750, -0.214355468750, -0.074218750000, -2.850097656250, 0.787109375000, -1.605468750000, 0.152832031250, 0.000000000000, 0.000000000000, 0.000000000000, 0.000000000000, 0.000000000000, 0.000000000000, 0.000000000000, 0.000000000000, 0.000000000000, 0.000000000000, 0.357910156250, 0.095703125000, -0.283691406250, -0.037597656250, -0.196289062500, -0.565917968750, 0.232910156250, 0.279296875000, 0.184082031250, -0.044921875000, 0.000000000000, 0.000000000000, 0.000000000000, 0.000000000000, 0.000000000000, 0.000000000000, 0.000000000000, 0.000000000000, 0.000000000000, 0.000000000000, 2.570312500000, 1.146484375000, 0.571289062500, -2.070312500000, -0.261230468750, 0.577636718750, 1.769042968750, 0.210449218750, 1.233886718750, -0.767578125000, 0.000000000000, 0.000000000000, 0.000000000000, 0.000000000000, 0.000000000000, 0.000000000000, 0.000000000000, 0.000000000000, 0.000000000000, 0.000000000000, -2.490722656250, -2.068847656250, -0.230957031250, 1.578125000000, -0.093261718750, -0.236328125000, -1.825683593750, 0.396484375000, -1.598144531250, 0.721679687500, 0.000000000000, 0.000000000000, 0.000000000000, 0.000000000000, 0.000000000000, 0.000000000000, 0.000000000000, 0.000000000000, 0.000000000000, 0.000000000000, -0.673339843750, 0.196289062500, -0.524414062500, -0.263183593750, 0.453613281250, 0.886718750000, 0.197753906250, -0.708007812500, -0.276367187500, 0.012695312500, 0.000000000000, 0.000000000000, 0.000000000000, 0.000000000000, 0.000000000000, 0.000000000000, 0.000000000000, 0.000000000000, 0.000000000000, 0.000000000000, 0.000000000000, 0.000000000000, 0.000000000000, 0.000000000000, 0.000000000000, 0.000000000000, 0.000000000000, 0.000000000000, 0.000000000000, 0.000000000000, 0.112792968750, 0.634277343750, -0.349121093750, -0.773437500000, -0.261230468750, -0.465332031250, 0.180175781250, -0.068359375000, -0.987304687500, 0.251464843750, 0.000000000000, 0.000000000000, 0.000000000000, 0.000000000000, 0.000000000000, 0.000000000000, 0.000000000000, 0.000000000000, 0.000000000000, 0.000000000000, 0.757324218750, 0.206542968750, -0.866699218750, -0.312011718750, -1.094726562500, 0.414550781250, 0.930664062500, 0.132812500000, -0.325195312500, 0.208496093750, 0.000000000000, 0.000000000000, 0.000000000000, 0.000000000000, 0.000000000000, 0.000000000000, 0.000000000000, 0.000000000000, 0.000000000000, 0.000000000000, -0.312988281250, -0.102539062500, 1.041503906250, -0.345703125000, -0.034667968750, -0.034179687500, -0.295898437500, 0.912597656250, -0.020507812500, -0.116699218750, 0.000000000000, 0.000000000000, 0.000000000000, 0.000000000000, 0.000000000000, 0.000000000000, 0.000000000000, 0.000000000000, 0.000000000000, 0.000000000000, 0.102050781250, 0.590820312500, 0.200683593750, -0.440429687500, -0.169921875000, -0.586914062500, 1.528808593750, 0.602539062500, 0.264648437500, -0.012695312500, 0.000000000000, 0.000000000000, 0.000000000000, 0.000000000000, 0.000000000000, 0.000000000000, 0.000000000000, 0.000000000000, 0.000000000000, 0.000000000000, -0.160156250000, 0.078125000000, 0.790527343750, -0.778808593750, -0.809570312500, 0.489746093750, 0.997558593750, 0.046386718750, -0.057128906250, 0.408691406250, 0.000000000000, 0.000000000000, 0.000000000000, 0.000000000000, 0.000000000000, 0.000000000000, 0.000000000000, 0.000000000000, 0.000000000000, 0.000000000000, -0.100585937500, 0.258789062500, -0.725097656250, -0.009765625000, 0.070312500000, 0.049804687500, -0.409179687500, 0.786621093750, 0.213867187500, -0.867675781250, 0.000000000000, 0.000000000000, 0.000000000000, 0.000000000000, 0.000000000000, 0.000000000000, 0.000000000000, 0.000000000000, 0.000000000000, 0.000000000000, -1.062988281250, 0.649414062500, -0.362304687500, -0.986328125000, -1.076171875000, 0.880859375000, -0.566894531250, -0.134277343750, 0.041015625000, -1.288574218750, 0.000000000000, 0.000000000000, 0.000000000000, 0.000000000000, 0.000000000000, 0.000000000000, 0.000000000000, 0.000000000000, 0.000000000000, 0.000000000000, 0.892578125000, 0.472167968750, -0.039550781250, 0.504882812500, 0.675781250000, -0.105468750000, 0.837890625000, -0.959960937500, 0.463378906250, 0.912109375000, 0.000000000000, 0.000000000000, 0.000000000000, 0.000000000000, 0.000000000000, 0.000000000000, 0.000000000000, 0.000000000000, 0.000000000000, 0.000000000000, -0.018554687500, 0.188476562500, 0.587402343750, -0.422363281250, -0.446777343750, -0.159667968750, -0.105957031250, 0.377929687500, -0.253906250000, 0.152832031250, 0.000000000000, 0.000000000000, 0.000000000000, 0.000000000000, 0.000000000000, 0.000000000000, 0.000000000000, 0.000000000000, 0.000000000000, 0.000000000000, 0.415039062500, 0.229492187500, -0.229492187500, 1.001953125000, 0.552246093750, -0.103027343750, -0.928222656250, -0.070312500000, 1.380859375000, 0.782714843750, 0.000000000000, 0.000000000000, 0.000000000000, 0.000000000000, 0.000000000000, 0.000000000000, 0.000000000000, 0.000000000000, 0.000000000000, 0.000000000000, 0.068847656250, 0.042480468750, -1.275878906250, 0.545410156250, 0.318847656250, 0.111328125000, -0.015625000000, 0.243652343750, -0.534179687500, 0.602539062500, 0.000000000000, 0.000000000000, 0.000000000000, 0.000000000000, 0.000000000000, 0.000000000000, 0.000000000000, 0.000000000000, 0.000000000000, 0.000000000000, -1.503906250000, -0.676757812500, -0.942382812500, -0.847656250000, -0.331054687500, -0.767578125000, -0.479003906250, -0.538574218750, -0.935546875000, -0.276367187500};
#endif

#endif
