//Numpy array shape [24, 16]
//Min -2.426010131836
//Max 1.256851196289
//Number of zeros 230

#ifndef W6_H_
#define W6_H_

#ifndef __SYNTHESIS__
weight6_t w6[384];
#else
weight6_t w6[384] = {-0.466598510742188, 0.000000000000000, 0.000000000000000, 0.425704956054688, -1.572097778320312, -0.455474853515625, 0.000000000000000, -0.793304443359375, 0.000000000000000, 0.029800415039062, -1.023254394531250, -1.432205200195312, 0.000000000000000, 0.271209716796875, -0.253768920898438, 0.453781127929688, -0.925613403320312, 0.000000000000000, 0.000000000000000, 0.000000000000000, -0.671752929687500, -0.762008666992188, 0.514389038085938, -0.345916748046875, 1.256851196289062, -0.343490600585938, 0.000000000000000, 0.350494384765625, -0.402313232421875, 0.000000000000000, -1.212295532226562, 0.000000000000000, 0.419158935546875, 0.680023193359375, 0.000000000000000, 0.000000000000000, -0.312576293945312, 0.274948120117188, 0.000000000000000, 0.000000000000000, -0.581222534179688, 0.000000000000000, 0.772018432617188, 0.000000000000000, 0.000000000000000, 0.000000000000000, 0.000000000000000, 0.000000000000000, 0.000000000000000, 0.000000000000000, 0.000000000000000, 0.000000000000000, 0.423461914062500, 0.000000000000000, 0.000000000000000, -0.681976318359375, 0.321044921875000, -0.173400878906250, 0.000000000000000, 0.000000000000000, 0.000000000000000, 0.587661743164062, 0.000000000000000, 0.000000000000000, 0.000000000000000, 0.000000000000000, 0.000000000000000, 0.000000000000000, 0.000000000000000, -0.307495117187500, 0.000000000000000, 0.545257568359375, 0.000000000000000, 0.000000000000000, -0.240051269531250, -0.305191040039062, 0.000000000000000, 0.000000000000000, 0.000000000000000, 0.474761962890625, 0.000000000000000, 0.000000000000000, 0.704803466796875, 0.000000000000000, 0.476882934570312, 0.154891967773438, 0.000000000000000, 0.000000000000000, 0.000000000000000, -0.518783569335938, 0.000000000000000, 0.000000000000000, -0.067459106445312, 0.351242065429688, 0.000000000000000, 0.000000000000000, 0.000000000000000, -0.367630004882812, 0.000000000000000, 0.000000000000000, 0.000000000000000, 0.000000000000000, -0.805404663085938, 0.000000000000000, 0.000000000000000, -0.836547851562500, -0.441802978515625, -0.447525024414062, 0.000000000000000, 0.000000000000000, 0.000000000000000, 0.000000000000000, 0.000000000000000, 0.000000000000000, 0.000000000000000, 0.000000000000000, 0.000000000000000, 0.000000000000000, 0.304641723632812, -0.429626464843750, 0.449722290039062, 0.000000000000000, 0.000000000000000, 0.000000000000000, 0.000000000000000, 0.000000000000000, 0.000000000000000, 0.000000000000000, 0.575546264648438, 0.000000000000000, 0.000000000000000, 0.000000000000000, 0.000000000000000, 0.431152343750000, 0.000000000000000, 0.000000000000000, 0.000000000000000, 0.040740966796875, 0.605682373046875, -0.814392089843750, 0.000000000000000, -0.209030151367188, 0.000000000000000, 0.000000000000000, 0.000000000000000, 0.302749633789062, 0.000000000000000, 0.000000000000000, 0.000000000000000, 0.000000000000000, 0.000000000000000, 0.426879882812500, 0.000000000000000, -0.583160400390625, 0.000000000000000, 0.706359863281250, 0.000000000000000, 0.344573974609375, 0.000000000000000, 0.000000000000000, 0.524124145507812, 0.000000000000000, 0.000000000000000, 0.432327270507812, -0.373275756835938, 0.000000000000000, -0.542358398437500, 0.000000000000000, 0.000000000000000, 0.000000000000000, 0.000000000000000, -1.044006347656250, -0.694519042968750, -0.916946411132812, -0.319519042968750, 0.474441528320312, 0.000000000000000, 0.000000000000000, 0.000000000000000, 0.000000000000000, 0.000000000000000, 0.800674438476562, 0.237518310546875, -0.252563476562500, 0.000000000000000, 0.000000000000000, 0.233489990234375, 0.000000000000000, -0.227920532226562, 0.372772216796875, 0.000000000000000, -0.523483276367188, 0.000000000000000, -0.644409179687500, 0.494293212890625, 0.000000000000000, 0.000000000000000, -0.309143066406250, 0.000000000000000, 0.000000000000000, 0.000000000000000, -2.426010131835938, -0.687728881835938, -0.207153320312500, 0.348510742187500, 0.000000000000000, 0.000000000000000, 0.000000000000000, 0.466400146484375, 0.000000000000000, 0.000000000000000, 1.012664794921875, 0.717636108398438, 0.461868286132812, 0.000000000000000, 0.000000000000000, -0.377471923828125, 0.000000000000000, 0.000000000000000, 0.874526977539062, 0.000000000000000, -0.490036010742188, 0.000000000000000, 0.000000000000000, 0.472244262695312, 0.000000000000000, 0.000000000000000, 0.000000000000000, 0.000000000000000, 0.000000000000000, 0.459732055664062, 0.227005004882812, -0.249938964843750, 0.764770507812500, 0.000000000000000, 0.000000000000000, 0.000000000000000, 0.000000000000000, 0.560134887695312, -0.412002563476562, 0.215042114257812, 0.733734130859375, 0.000000000000000, 0.000000000000000, 0.000000000000000, -0.310272216796875, 0.000000000000000, -0.311019897460938, 0.000000000000000, -0.663635253906250, 0.000000000000000, 0.000000000000000, 0.000000000000000, -0.311172485351562, 0.000000000000000, 0.000000000000000, 0.000000000000000, 0.000000000000000, 0.000000000000000, 0.000000000000000, 0.000000000000000, 0.000000000000000, 0.636901855468750, 0.000000000000000, 0.000000000000000, 0.394927978515625, 0.000000000000000, 0.000000000000000, 0.000000000000000, 0.000000000000000, 0.246994018554688, 0.513061523437500, 0.000000000000000, 0.000000000000000, 0.077011108398438, 0.000000000000000, 0.000000000000000, -0.615036010742188, 0.000000000000000, -0.369979858398438, 0.000000000000000, 0.000000000000000, 0.000000000000000, -1.347564697265625, 0.000000000000000, -0.358581542968750, 0.000000000000000, 0.000000000000000, 0.000000000000000, 0.000000000000000, 0.000000000000000, 0.000000000000000, 0.000000000000000, 0.666244506835938, 0.000000000000000, 0.000000000000000, 0.456390380859375, -1.637557983398438, 0.241729736328125, 0.000000000000000, 0.000000000000000, 0.552856445312500, 0.009857177734375, -0.697082519531250, 0.280319213867188, 0.000000000000000, 0.000000000000000, 0.538528442382812, -0.879165649414062, -1.096237182617188, -0.231277465820312, -2.172775268554688, -0.394042968750000, 0.000000000000000, -1.191268920898438, -0.926437377929688, 0.917968750000000, 0.000000000000000, 0.000000000000000, -0.273162841796875, 0.000000000000000, 0.000000000000000, 0.000000000000000, 0.000000000000000, 0.000000000000000, 0.000000000000000, -0.762985229492188, -0.405426025390625, 0.000000000000000, -0.367889404296875, -0.246978759765625, -0.593292236328125, 0.792358398437500, 0.000000000000000, 0.000000000000000, 0.354370117187500, 0.000000000000000, 0.000000000000000, 0.000000000000000, 0.000000000000000, 0.000000000000000, 0.000000000000000, -0.868743896484375, 0.000000000000000, 0.000000000000000, 0.000000000000000, 0.000000000000000, 0.000000000000000, -0.235122680664062, -0.624603271484375, -0.186172485351562, 0.508941650390625, 0.000000000000000, 0.000000000000000, 0.000000000000000, 0.000000000000000, 0.000000000000000, 0.000000000000000, 0.530014038085938, 0.000000000000000, -0.347900390625000, 0.633697509765625, 0.000000000000000, 0.000000000000000, -0.558898925781250, 0.000000000000000, 0.000000000000000, 0.000000000000000, 0.000000000000000, 0.000000000000000, 0.000000000000000, 1.065460205078125, -0.659591674804688, 0.000000000000000, 0.000000000000000, 0.000000000000000, 0.000000000000000, 0.848480224609375, 0.000000000000000, -0.304977416992188, 0.217681884765625, 0.000000000000000, 0.000000000000000, -1.066604614257812};
#endif

#endif
