//Numpy array shape [20, 16]
//Min -14.233398437500
//Max 14.913574218750
//Number of zeros 160

#ifndef W8_H_
#define W8_H_

#ifndef __SYNTHESIS__
dense_2_weight_t w8[320];
#else
dense_2_weight_t w8[320] = {-2.608398437500, -5.807128906250, 1.019531250000, -7.681152343750, -0.568847656250, -0.591796875000, -11.714843750000, -1.808105468750, 0.000000000000, 0.000000000000, 0.000000000000, 0.000000000000, 0.000000000000, 0.000000000000, 0.000000000000, 0.000000000000, -2.515625000000, -6.567382812500, -0.073730468750, -7.845214843750, 0.401855468750, 0.092285156250, -11.438964843750, -2.076660156250, 0.000000000000, 0.000000000000, 0.000000000000, 0.000000000000, 0.000000000000, 0.000000000000, 0.000000000000, 0.000000000000, 0.639648437500, -1.589843750000, -1.399414062500, 0.452636718750, 3.991699218750, -5.843750000000, -2.949707031250, 1.999023437500, 0.000000000000, 0.000000000000, 0.000000000000, 0.000000000000, 0.000000000000, 0.000000000000, 0.000000000000, 0.000000000000, 2.846191406250, -0.791503906250, -3.671875000000, -0.321777343750, -6.008789062500, -2.335449218750, -1.123046875000, 0.016601562500, 0.000000000000, 0.000000000000, 0.000000000000, 0.000000000000, 0.000000000000, 0.000000000000, 0.000000000000, 0.000000000000, -1.237792968750, 1.615722656250, -1.536132812500, -0.778808593750, -3.212402343750, 0.548828125000, 0.416015625000, -1.499511718750, 0.000000000000, 0.000000000000, 0.000000000000, 0.000000000000, 0.000000000000, 0.000000000000, 0.000000000000, 0.000000000000, -2.374511718750, 0.945312500000, -2.323730468750, -2.076171875000, 0.623046875000, 2.032714843750, -0.641113281250, 2.457519531250, 0.000000000000, 0.000000000000, 0.000000000000, 0.000000000000, 0.000000000000, 0.000000000000, 0.000000000000, 0.000000000000, 4.413085937500, 3.933593750000, 0.270996093750, 10.766113281250, -0.460937500000, -0.167480468750, 14.913574218750, -0.297851562500, 0.000000000000, 0.000000000000, 0.000000000000, 0.000000000000, 0.000000000000, 0.000000000000, 0.000000000000, 0.000000000000, -1.220703125000, 1.548828125000, -8.060546875000, 0.765136718750, -14.233398437500, -2.656738281250, -1.905761718750, 1.683593750000, 0.000000000000, 0.000000000000, 0.000000000000, 0.000000000000, 0.000000000000, 0.000000000000, 0.000000000000, 0.000000000000, 3.390625000000, 6.442871093750, -0.100097656250, 9.842285156250, 0.060058593750, -0.246582031250, 14.408203125000, 0.673828125000, 0.000000000000, 0.000000000000, 0.000000000000, 0.000000000000, 0.000000000000, 0.000000000000, 0.000000000000, 0.000000000000, 1.422851562500, -0.788085937500, -5.633789062500, 0.214355468750, -1.463867187500, -2.497558593750, 0.066894531250, -1.239746093750, 0.000000000000, 0.000000000000, 0.000000000000, 0.000000000000, 0.000000000000, 0.000000000000, 0.000000000000, 0.000000000000, 0.000000000000, 0.000000000000, 0.000000000000, 0.000000000000, 0.000000000000, 0.000000000000, 0.000000000000, 0.000000000000, 1.581054687500, 0.096191406250, -0.500488281250, -0.450195312500, -1.751953125000, -1.355957031250, 0.945312500000, 1.727050781250, 0.000000000000, 0.000000000000, 0.000000000000, 0.000000000000, 0.000000000000, 0.000000000000, 0.000000000000, 0.000000000000, -1.756835937500, -1.850097656250, -0.741699218750, 0.663085937500, -0.164550781250, 1.041992187500, -1.373535156250, -0.912109375000, 0.000000000000, 0.000000000000, 0.000000000000, 0.000000000000, 0.000000000000, 0.000000000000, 0.000000000000, 0.000000000000, -1.339355468750, -1.380859375000, -0.200195312500, -0.968750000000, -0.499511718750, -1.363281250000, -2.008789062500, -1.790039062500, 0.000000000000, 0.000000000000, 0.000000000000, 0.000000000000, 0.000000000000, 0.000000000000, 0.000000000000, 0.000000000000, -0.492187500000, -2.813476562500, 0.489746093750, 0.914550781250, 2.208984375000, 1.018066406250, 0.090820312500, -1.988281250000, 0.000000000000, 0.000000000000, 0.000000000000, 0.000000000000, 0.000000000000, 0.000000000000, 0.000000000000, 0.000000000000, 0.439453125000, 0.495117187500, -1.102539062500, -0.683105468750, -5.216796875000, -1.413085937500, 1.246582031250, 0.875488281250, 0.000000000000, 0.000000000000, 0.000000000000, 0.000000000000, 0.000000000000, 0.000000000000, 0.000000000000, 0.000000000000, 1.452148437500, 0.526855468750, -2.150390625000, -0.572265625000, -1.705566406250, -2.571777343750, -1.396484375000, 2.056152343750, 0.000000000000, 0.000000000000, 0.000000000000, 0.000000000000, 0.000000000000, 0.000000000000, 0.000000000000, 0.000000000000, 1.336425781250, 0.687988281250, 0.772949218750, 0.656738281250, 2.148437500000, -1.058105468750, -2.050292968750, -2.244140625000, 0.000000000000, 0.000000000000, 0.000000000000, 0.000000000000, 0.000000000000, 0.000000000000, 0.000000000000, 0.000000000000, 2.177246093750, 1.084960937500, -0.565429687500, 0.798828125000, -0.191406250000, 1.958496093750, 0.067382812500, -0.520019531250, 0.000000000000, 0.000000000000, 0.000000000000, 0.000000000000, 0.000000000000, 0.000000000000, 0.000000000000, 0.000000000000, -0.396484375000, 1.477539062500, 1.119628906250, 2.555175781250, -3.330078125000, 0.549316406250, -1.757324218750, -0.592285156250, 0.000000000000, 0.000000000000, 0.000000000000, 0.000000000000, 0.000000000000, 0.000000000000, 0.000000000000, 0.000000000000, -1.458496093750, 3.115722656250, 1.548828125000, -0.466796875000, 0.236328125000, 0.008300781250, -0.124511718750, 0.215332031250};
#endif

#endif
